a0 1015988797
a1 227243221
a2 73736855
a3 598706041
index 2
isWaldo_i3o1_1_p1 1
isWaldo_i3o1_1_param_0 73736855
isWaldo_i3o1_1_param_1 229
isWaldo_i3o1_1_param_2 321995
isWaldo_i3o1_1_q1 1
isWaldo_i3o1_1_sym_0 228
isWaldo_i3o1_1_sym_1 1
isWaldo_i3o1_1_sym_2 18336203458426761260741506567298857639968147370523958594940162279105172906416
isWaldo_i3o1_1_sym_3 0
isWaldo_i3o1_1_sym_4 321994
isWaldo_i3o1_1_sym_5 1
isWaldo_i3o1_1_sym_6 4896328024173466446527532685159152864193277326278025484146406297492713870851
isWaldo_i3o1_1_sym_7 0
p 229
q 321995
sym_0 2
sym_1 1
sym_10 0
sym_11 0
sym_12 0
sym_13 1
sym_14 1
sym_15 73736855
sym_16 0
sym_17 21888242871839275222246405745257275088548364400416034343698204186575808495616
sym_18 1
sym_19 21888242871839275222246405745257275088548364400416034343698204186575808495616
sym_2 10944121435919637611123202872628637544274182200208017171849102093287904247809
sym_20 0
sym_21 0
sym_22 73736855
sym_3 0
sym_4 0
sym_5 1
sym_6 1
sym_7 1
sym_8 0
sym_9 0
waldo 0
waldo_0 0
waldo_1 73736855
waldo_2 73736855
~one 1
~out_0 1
