a0 1139690253
a1 537516569
a2 1682610233
a3 592499191
index 0
isWaldo_i3o1_1_p1 1
isWaldo_i3o1_1_param_0 1139690253
isWaldo_i3o1_1_param_1 39
isWaldo_i3o1_1_param_2 29222827
isWaldo_i3o1_1_q1 1
isWaldo_i3o1_1_sym_0 38
isWaldo_i3o1_1_sym_1 1
isWaldo_i3o1_1_sym_2 576006391364191453217010677506770397067062221063579851149952741751994960411
isWaldo_i3o1_1_sym_3 0
isWaldo_i3o1_1_sym_4 29222826
isWaldo_i3o1_1_sym_5 1
isWaldo_i3o1_1_sym_6 10712925447182446847837668695729487797872788764037688659172038030768352522841
isWaldo_i3o1_1_sym_7 0
p 39
q 29222827
sym_0 0
sym_1 0
sym_10 1139690253
sym_11 21888242871839275222246405745257275088548364400416034343698204186575808495615
sym_12 1
sym_13 10944121435919637611123202872628637544274182200208017171849102093287904247808
sym_14 0
sym_15 0
sym_16 1139690253
sym_17 21888242871839275222246405745257275088548364400416034343698204186575808495614
sym_18 1
sym_19 7296080957279758407415468581752425029516121466805344781232734728858602831872
sym_2 1
sym_20 0
sym_21 0
sym_22 1139690253
sym_3 1
sym_4 1139690253
sym_5 21888242871839275222246405745257275088548364400416034343698204186575808495616
sym_6 1
sym_7 21888242871839275222246405745257275088548364400416034343698204186575808495616
sym_8 0
sym_9 0
waldo 1139690253
waldo_0 1139690253
waldo_1 1139690253
waldo_2 1139690253
~one 1
~out_0 1
